<unk>	0
<s>	0
</s>	0
ու	-0
ան	-1
ար	-2
ակ	-3
եր	-4
այ	-5
▁հ	-6
ին	-7
որ	-8
ում	-9
ական	-10
ուն	-11
ել	-12
ութ	-13
ությ	-14
▁է	-15
եւ	-16
ներ	-17
ավ	-18
▁մ	-19
▁Հ	-20
աս	-21
▁կ	-22
▁Ա	-23
ամ	-24
ատ	-25
▁թ	-26
ություն	-27
▁Հայ	-28
ած	-29
են	-30
▁պ	-31
▁եւ	-32
ագ	-33
աշ	-34
ետ	-35
▁դ	-36
ից	-37
ով	-38
տան	-39
▁Մ	-40
▁որ	-41
▁հայ	-42
▁տ	-43
▁ար	-44
աց	-45
ության	-46
առ	-47
▁Ար	-48
ավոր	-49
▁ի	-50
▁ն	-51
ազ	-52
▁գ	-53
յան	-54
▁ան	-55
▁թվ	-56
աստան	-57
ահ	-58
▁վ	-59
▁են	-60
▁թվական	-61
ապ	-62
ես	-63
եղ	-64
ոն	-65
▁բ	-66
▁ս	-67
վել	-68
ող	-69
ների	-70
ալ	-71
աղ	-72
ված	-73
▁Հայաստան	-74
րդ	-75
աք	-76
եց	-77
ությունը	-78
▁ք	-79
▁դար	-80
ման	-81
քում	-82
խար	-83
▁մի	-84
▁թագ	-85
▁Բ	-86
անդ	-87
▁թվականին	-88
աբ	-89
աջ	-90
անակ	-91
▁թագավոր	-92
ոս	-93
▁զ	-94
երի	-95
ըն	-96
կական	-97
▁Ե	-98
▁ու	-99
▁վեր	-100
իր	-101
անի	-102
▁առ	-103
ները	-104
ազմ	-105
ուս	-106
ավար	-107
խարհ	-108
▁Վ	-109
ուր	-110
▁տար	-111
աշխարհ	-112
ախ	-113
եծ	-114
եռ	-115
շխ	-116
ոց	-117
▁ժ	-118
▁համ	-119
]։	-120
քի	-121
▁շ	-122
այի	-123
▁ըն	-124
աղաք	-125
▁լ	-126
այս	-127
ույ	-128
րան	-129
▁հետ	-130
▁պետ	-131
այր	-132
▁եր	-133
ային	-134
ադ	-135
տն	-136
▁Տ	-137
երը	-138
▁իր	-139
▁հար	-140
անում	-141
եկ	-142
եմ	-143
յուն	-144
վում	-145
▁իշխ	-146
▁պատ	-147
իս	-148
▁1	-149
ամբ	-150
▁Եր	-151
▁էր	-152
▁առաջ	-153
▁«	-154
իկ	-155
▁(	-156
▁Ս	-157
շակ	-158
որդ	-159
▁հի	-160
ապետ	-161
▁Մեծ	-162
▁տարած	-163
▁Հայաստանի	-164
ոմ	-165
ագր	-166
աշտ	-167
▁նա	-168
▁Արտ	-169
ամանակ	-170
▁Հայկական	-171
00	-172
ոտ	-173
▁Դ	-174
եռն	-175
ռոմ	-176
▁արդ	-177
▁երկ	-178
▁մաս	-179
▁կայս	-180
▁իշխան	-181
▁հայոց	-182
եռնաշխարհ	-183
▁2	-184
▁Գ	-185
▁Կ	-186
արձ	-187
նակ	-188
ներին	-189
▁Հայաստանը	-190
ստ	-191
րա	-192
րո	-193
▁այ	-194
▁անկ	-195
▁կայսր	-196
▁քաղաք	-197
▁ժամանակ	-198
▁լեռնաշխարհ	-199
սկ	-200
րջ	-201
▁Ն	-202
▁սկ	-203
▁ընդ	-204
▁հաս	-205
▁Արտաշ	-206
ությամբ	-207
աթ	-208
▁3	-209
▁4	-210
▁5	-211
▁8	-212
ինչ	-213
նել	-214
պես	-215
րել	-216
▁Մի	-217
▁անվ	-218
▁արք	-219
▁հիմ	-220
▁պայ	-221
▁տեղ	-222
յունքում	-223
իգ	-224
▁6	-225
եւմ	-226
յու	-227
ռոմե	-228
▁զոր	-229
▁իսկ	-230
▁կառ	-231
▁ուն	-232
ներից	-233
ունին	-234
▁դարի	-235
▁արդյունքում	-236
լի	-237
քը	-238
▁օ	-239
արգ	-240
արկ	-241
պան	-242
▁ապ	-243
▁ավ	-244
իայի	-245
ույթ	-246
▁որը	-247
▁հիմն	-248
][	-249
▁խ	-250
▁ծ	-251
▁ձ	-252
▁ց	-253
▁փ	-254
ազար	-255
արել	-256
եւմտ	-257
ույն	-258
վանդ	-259
▁Տիգ	-260
▁դեմ	-261
▁ներ	-262
▁շար	-263
▁որդ	-264
▁պար	-265
▁կազմ	-266
▁հետո	-267
▁հայտն	-268
եւմտյան	-269
▁առաջին	-270
▁Խ	-271
▁Պ	-272
ամյ	-273
անգ	-274
ոսի	-275
ուլ	-276
րոն	-277
▁Այ	-278
աբեր	-279
զանդ	-280
▁Միջ	-281
▁գահ	-282
▁քար	-283
ագրատ	-284
երազմ	-285
▁բնակ	-286
▁երկր	-287
▁մշակ	-288
աքաղաք	-289
▁հազար	-290
▁Բագրատ	-291
▁Երվանդ	-292
▁Արտաշես	-293
▁պատերազմ	-294
[4	-295
[5	-296
ափ	-297
ը՝	-298
անր	-299
ուշ	-300
պար	-301
տեղ	-302
▁գլ	-303
▁հն	-304
ակալ	-305
աշրջ	-306
երին	-307
յուս	-308
նում	-309
ում՝	-310
▁անց	-311
▁մոտ	-312
ամյակ	-313
աններ	-314
խարար	-315
▁պաշտ	-316
▁պատմ	-317
▁անկախ	-318
յուզանդ	-319
ությունն	-320
▁նախարար	-321
▁պետական	-322
այրաքաղաք	-323
▁կայսրության	-324
▁թագավորությունը	-325
[2	-326
],	-327
Ար	-328
ոշ	-329
տի	-330
▁Ի	-331
▁ճ	-332
▁չ	-333
ազգ	-334
ալի	-335
անը	-336
արդ	-337
արտ	-338
▁էլ	-339
ողով	-340
▁էին	-341
▁մեկ	-342
▁նախ	-343
▁որի	-344
▁ցեղ	-345
ահման	-346
ատված	-347
▁Մեծի	-348
▁Վանի	-349
▁արաբ	-350
▁նաեւ	-351
▁վերջ	-352
▁Արշակ	-353
▁ընդուն	-354
ռոմեական	-355
▁կառավար	-356
▁հայկական	-357
▁քաղաքական	-358
ությունների	-359
▁հազարամյակ	-360
▁մայրաքաղաք	-361
▁թվականներին	-362
եո	-363
եպ	-364
ի՝	-365
իտ	-366
ոխ	-367
ոփ	-368
▁Լ	-369
այն	-370
անք	-371
թեւ	-372
ին՝	-373
ինք	-374
յալ	-375
ուց	-376
տոն	-377
րոպ	-378
▁19	-379
ացել	-380
եւան	-381
եւել	-382
▁այլ	-383
▁այս	-384
▁բեր	-385
▁գլխ	-386
▁ինք	-387
▁կես	-388
▁պահ	-389
▁սկս	-390
ականգ	-391
▁իրեն	-392
▁մինչ	-393
▁պայք	-394
▁պարս	-395
▁Հայքի	-396
▁ժողով	-397
▁մասին	-398
▁որպես	-399
անրապետ	-400
▁Տիգրան	-401
▁աշխարհ	-402
▁հայտնի	-403
▁սահման	-404
▁գլխավոր	-405
▁անվանում	-406
▁մշակույթ	-407
▁վերականգ	-408
▁լեռնաշխարհի	-409
աժ	-410
աճ	-411
եզ	-412
եք	-413
զբ	-414
իշ	-415
իվ	-416
նի	-417
ոյ	-418
ակց	-419
արզ	-420
ենի	-421
զոր	-422
թաց	-423
յաց	-424
շավ	-425
ործ	-426
վեց	-427
վող	-428
▁Աշ	-429
▁եղ	-430
ատակ	-431
արձր	-432
երից	-433
որեն	-434
ումը	-435
ունի	-436
ուստ	-437
վրոպ	-438
▁Պար	-439
▁ենթ	-440
▁կայ	-441
▁կար	-442
▁կող	-443
▁հաջ	-444
▁տեր	-445
ունակ	-446
▁բերդ	-447
▁հզոր	-448
▁հուշ	-449
▁որոն	-450
▁քանի	-451
յուսիս	-452
ներում	-453
▁արշավ	-454
▁անկում	-455
▁պաշտոն	-456
▁տարածք	-457
▁թվականի	-458
▁հուշարձ	-459
▁տարածքում	-460
▁պետություն	-461
▁թագավորության	-462
▁լեռնաշխարհում	-463
0-	-464
9-	-465
[3	-466
եդ	-467
եջ	-468
ոչ	-469
▁Թ	-470
▁Ծ	-471
▁Ռ	-472
▁Փ	-473
Հայ	-474
ադր	-475
ասն	-476
ավի	-477
բաղ	-478
կայ	-479
նաց	-480
րոք	-481
▁85	-482
▁Աս	-483
▁նշ	-484
▁քր	-485
ա	-486
▁	-487
ն	-488
ր	-489
ո	-490
ե	-491
ի	-492
ւ	-493
կ	-494
յ	-495
մ	-496
տ	-497
վ	-498
ս	-499
թ	-500
հ	-501
լ	-502
ը	-503
դ	-504
ք	-505
ց	-506
գ	-507
պ	-508
շ	-509
է	-510
,	-511
։	-512
ղ	-513
ծ	-514
բ	-515
Հ	-516
զ	-517
Ա	-518
ռ	-519
խ	-520
.	-521
ջ	-522
-	-523
՝	-524
Մ	-525
5	-526
0	-527
1	-528
ձ	-529
2	-530
[	-531
]	-532
ժ	-533
չ	-534
4	-535
3	-536
8	-537
Բ	-538
փ	-539
9	-540
Ե	-541
Վ	-542
6	-543
ճ	-544
Տ	-545
Ս	-546
«	-547
»	-548
(	-549
)	-550
7	-551
Դ	-552
Կ	-553
Գ	-554
Ն	-555
օ	-556
Խ	-557
Պ	-558
–	-559
Ի	-560
Լ	-561
Թ	-562
Ծ	-563
Ռ	-564
Փ	-565
ֆ	-566
Շ	-567
Ո	-568
I	-569
Է	-570
Ը	-571
Օ	-572
μ	-573
ν	-574
ρ	-575
Զ	-576
Յ	-577
Ἀ	-578
/	-579
X	-580
έ	-581
ί	-582
α	-583
ε	-584
ι	-585
ο	-586
ς	-587
Ժ	-588
Ղ	-589
Չ	-590
Ք	-591
𐎠	-592
𐎡	-593
𐎴	-594
𐎷	-595
𐎼	-596
